{
    "\u0000": 0,
    "\u0001": 1,
    "\u0002": 2,
    "\u0003": 3,
    "\u0004": 4,
    "\u0005": 5,
    "\u0006": 6,
    "\u0007": 7,
    "\b": 8,
    "\t": 9,
    "\n": 10,
    "\u000b": 11,
    "\f": 12,
    "\r": 13,
    "\u000e": 14,
    "\u000f": 15,
    "\u0010": 16,
    "\u0011": 17,
    "\u0012": 18,
    "\u0013": 19,
    "\u0014": 20,
    "\u0015": 21,
    "\u0016": 22,
    "\u0017": 23,
    "\u0018": 24,
    "\u0019": 25,
    "\u001a": 26,
    "\u001b": 27,
    "\u001c": 28,
    "\u001d": 29,
    "\u001e": 30,
    "\u001f": 31,
    " ": 32,
    "!": 33,
    "\"": 34,
    "#": 35,
    "$": 36,
    "%": 37,
    "&": 38,
    "'": 39,
    "(": 40,
    ")": 41,
    "*": 42,
    "+": 43,
    ",": 44,
    "-": 45,
    ".": 46,
    "/": 47,
    "0": 48,
    "1": 49,
    "2": 50,
    "3": 51,
    "4": 52,
    "5": 53,
    "6": 54,
    "7": 55,
    "8": 56,
    "9": 57,
    ":": 58,
    ";": 59,
    "<": 60,
    "=": 61,
    ">": 62,
    "?": 63,
    "@": 64,
    "A": 65,
    "B": 66,
    "C": 67,
    "D": 68,
    "E": 69,
    "F": 70,
    "G": 71,
    "H": 72,
    "I": 73,
    "J": 74,
    "K": 75,
    "L": 76,
    "M": 77,
    "N": 78,
    "O": 79,
    "P": 80,
    "Q": 81,
    "R": 82,
    "S": 83,
    "T": 84,
    "U": 85,
    "V": 86,
    "W": 87,
    "X": 88,
    "Y": 89,
    "Z": 90,
    "[": 91,
    "\\": 92,
    "]": 93,
    "^": 94,
    "_": 95,
    "`": 96,
    "a": 97,
    "b": 98,
    "c": 99,
    "d": 100,
    "e": 101,
    "f": 102,
    "g": 103,
    "h": 104,
    "i": 105,
    "j": 106,
    "k": 107,
    "l": 108,
    "m": 109,
    "n": 110,
    "o": 111,
    "p": 112,
    "q": 113,
    "r": 114,
    "s": 115,
    "t": 116,
    "u": 117,
    "v": 118,
    "w": 119,
    "x": 120,
    "y": 121,
    "z": 122,
    "{": 123,
    "|": 124,
    "}": 125,
    "~": 126,
    "\u007f": 127,
    "\ufffd": 259,
    " t": 256,
    "he": 257,
    " a": 258,
    "in": 260,
    " s": 261,
    " the": 262,
    " w": 263,
    "re": 264,
    "ou": 265,
    "ed": 266,
    " o": 267,
    " b": 268,
    " m": 269,
    "nd": 270,
    " h": 271,
    "er": 272,
    " c": 273,
    "ing": 274,
    " f": 275,
    "at": 276,
    " to": 277,
    "is": 278,
    "it": 279,
    " d": 280,
    "\u2019": 281,
    "on": 282,
    "or": 283,
    "en": 284,
    " I": 285,
    "ar": 286,
    " \ufffd": 287,
    "an": 288,
    " he": 289,
    "ll": 290,
    " l": 291,
    " \u201c": 292,
    "\u201d": 293,
    " p": 294,
    "es": 295,
    " and": 296,
    " th": 297,
    " of": 298,
    "as": 299,
    " in": 300,
    " g": 301,
    "om": 302,
    " n": 303,
    "ad": 304,
    "ow": 305,
    " be": 306,
    "id": 307,
    "ld": 308,
    "le": 309,
    " T": 310,
    " y": 311,
    "ot": 312,
    "ac": 313,
    " e": 314,
    "gh": 315,
    "ve": 316,
    ".\u201d": 317,
    " you": 318,
    " it": 319,
    " on": 320,
    "al": 321,
    "st": 322,
    "ut": 323,
    "et": 324,
    " st": 325,
    "ic": 326,
    "im": 327,
    " re": 328,
    " u": 329,
    "ly": 330,
    "ay": 331,
    " was": 332,
    " her": 333,
    " S": 334,
    "se": 335,
    " that": 336,
    " his": 337,
    "ould": 338,
    " r": 339,
    "out": 340,
    "ght": 341,
    " ha": 342,
    " k": 343,
    " as": 344,
    "ver": 345,
    " my": 346,
    "ir": 347,
    " H": 348,
    " we": 349,
    " The": 350,
    "oo": 351,
    " for": 352,
    "ion": 353,
    " me": 354,
    "ith": 355,
    " A": 356,
    "ent": 357,
    "ak": 358,
    " wh": 359,
    " with": 360,
    "ur": 361,
    " an": 362,
    "if": 363,
    "am": 364,
    " M": 365,
    " sh": 366,
    "her": 367,
    " at": 368,
    "ag": 369,
    "ight": 370,
    " fr": 371,
    "all": 372,
    " she": 373,
    "ain": 374,
    "red": 375,
    " had": 376,
    "ro": 377,
    "ack": 378,
    " is": 379,
    "ill": 380,
    "ee": 381,
    " He": 382,
    "pp": 383,
    " but": 384,
    "ec": 385,
    " not": 386,
    "ore": 387,
    "?\u201d": 388,
    "ch": 389,
    ",\u201d": 390,
    "ted": 391,
    " do": 392,
    "il": 393,
    " him": 394,
    "rou": 395,
    " out": 396,
    " kn": 397,
    "ked": 398,
    "ter": 399,
    "ard": 400,
    " from": 401,
    " sa": 402,
    "ce": 403,
    " li": 404,
    "ri": 405,
    " W": 406,
    "to": 407,
    "ome": 408,
    " ne": 409,
    "ind": 410,
    " have": 411,
    "ap": 412,
    "ke": 413,
    "ust": 414,
    "ist": 415,
    " J": 416,
    " up": 417,
    " so": 418,
    "un": 419,
    " they": 420,
    " j": 421,
    "lo": 422,
    " would": 423,
    " did": 424,
    " ab": 425,
    " le": 426,
    "th": 427,
    " could": 428,
    " B": 429,
    " .": 430,
    "one": 431,
    "ant": 432,
    "ie": 433,
    "our": 434,
    "us": 435,
    " back": 436,
    "um": 437,
    "ide": 438,
    " She": 439,
    "hed": 440,
    "ast": 441,
    " into": 442,
    " them": 443,
    " al": 444,
    " tr": 445,
    "ers": 446,
    "ess": 447,
    "You": 448,
    " all": 449,
    " v": 450,
    "ab": 451,
    " D": 452,
    " said": 453,
    "and": 454,
    " C": 455,
    " ch": 456,
    " sp": 457,
    "qu": 458,
    " one": 459,
    " wor": 460,
    " ex": 461,
    " this": 462,
    "el": 463,
    "op": 464,
    "own": 465,
    "ure": 466,
    " were": 467,
    " con": 468,
    "ook": 469,
    " go": 470,
    " ag": 471,
    " are": 472,
    "ck": 473,
    " no": 474,
    "hat": 475,
    "ul": 476,
    " whe": 477,
    "ood": 478,
    " like": 479,
    " been": 480,
    " know": 481,
    " de": 482,
    "est": 483,
    "ell": 484,
    " or": 485,
    " F": 486,
    " if": 487,
    " what": 488,
    " It": 489,
    "ss": 490,
    "way": 491,
    "ation": 492,
    " their": 493,
    "ally": 494,
    " over": 495,
    " didn": 496,
    "ong": 497,
    "ven": 498,
    " about": 499,
    " bl": 500,
    " see": 501,
    "hing": 502,
    " can": 503,
    "ig": 504,
    "\u2014": 505,
    " hand": 506,
    " mag": 507,
    "ake": 508,
    "ang": 509,
    " ey": 510,
    "art": 511,
    " any": 512,
    " ar": 513,
    "ate": 514,
    " gr": 515,
    "ct": 516,
    " us": 517,
    "ace": 518,
    "ort": 519,
    " ro": 520,
    "round": 521,
    " O": 522,
    "other": 523,
    " un": 524,
    " again": 525,
    " your": 526,
    " pl": 527,
    "em": 528,
    " thou": 529,
    " too": 530,
    "ies": 531,
    "au": 532,
    " tim": 533,
    "ink": 534,
    "ther": 535,
    "led": 536,
    " L": 537,
    " po": 538,
    "ame": 539,
    "ear": 540,
    " mo": 541,
    " down": 542,
    "ath": 543,
    " com": 544,
    "ity": 545,
    "are": 546,
    "ip": 547,
    " su": 548,
    " sc": 549,
    "sel": 550,
    " en": 551,
    " some": 552,
    " man": 553,
    " N": 554,
    "ive": 555,
    " Jak": 556,
    " R": 557,
    "ous": 558,
    " there": 559,
    " sm": 560,
    " by": 561,
    " off": 562,
    " get": 563,
    "urn": 564,
    "pped": 565,
    " bo": 566,
    "ered": 567,
    " E": 568,
    "ew": 569,
    " more": 570,
    "ull": 571,
    " lo": 572,
    " time": 573,
    " other": 574,
    "ale": 575,
    " just": 576,
    " who": 577,
    "pt": 578,
    " cl": 579,
    "rist": 580,
    " se": 581,
    "ice": 582,
    " will": 583,
    " eyes": 584,
    "ark": 585,
    "ry": 586,
    " co": 587,
    " head": 588,
    " But": 589,
    "ward": 590,
    " qu": 591,
    " when": 592,
    "very": 593,
    "ound": 594,
    "ra": 595,
    "fore": 596,
    "ved": 597,
    "ge": 598,
    "ect": 599,
    "act": 600,
    "rough": 601,
    "ire": 602,
    " around": 603,
    " look": 604,
    "ick": 605,
    " pro": 606,
    " through": 607,
    " than": 608,
    " don": 609,
    "nder": 610,
    " then": 611,
    "ine": 612,
    " P": 613,
    "self": 614,
    "ach": 615,
    " tw": 616,
    "ristan": 617,
    " sl": 618,
    " before": 619,
    "alek": 620,
    " fl": 621,
    " think": 622,
    " exp": 623,
    " now": 624,
    "ble": 625,
    " And": 626,
    "reat": 627,
    " gl": 628,
    "tain": 629,
    " Malek": 630,
    "ue": 631,
    " our": 632,
    " Tristan": 633,
    "ol": 634,
    " br": 635,
    "ave": 636,
    " should": 637,
    "ass": 638,
    " even": 639,
    "iz": 640,
    "ting": 641,
    "The": 642,
    " way": 643,
    " am": 644,
    " here": 645,
    " only": 646,
    " sw": 647,
    " You": 648,
    " St": 649,
    "ile": 650,
    " pre": 651,
    "ving": 652,
    "ade": 653,
    " say": 654,
    "ared": 655,
    "age": 656,
    "omet": 657,
    " pr": 658,
    " pe": 659,
    "ud": 660,
    " still": 661,
    "ite": 662,
    " They": 663,
    " dr": 664,
    " We": 665,
    " thought": 666,
    "med": 667,
    "ated": 668,
    "tle": 669,
    " away": 670,
    " wat": 671,
    "ings": 672,
    " need": 673,
    "fter": 674,
    " clo": 675,
    " loo": 676,
    "eep": 677,
    " right": 678,
    "ough": 679,
    " G": 680,
    " want": 681,
    "be": 682,
    "ari": 683,
    "ried": 684,
    " im": 685,
    "nt": 686,
    " long": 687,
    "old": 688,
    " ac": 689,
    " op": 690,
    "omething": 691,
    "ree": 692,
    "ff": 693,
    "ople": 694,
    " U": 695,
    " lif": 696,
    "wn": 697,
    " mu": 698,
    " Th": 699,
    "ady": 700,
    " bel": 701,
    " door": 702,
    "ened": 703,
    " dis": 704,
    "ft": 705,
    " how": 706,
    "thing": 707,
    " looked": 708,
    "ched": 709,
    "ment": 710,
    "ling": 711,
    "ans": 712,
    " under": 713,
    "side": 714,
    " fir": 715,
    "ves": 716,
    " bec": 717,
    " people": 718,
    "ru": 719,
    " K": 720,
    " face": 721,
    "dd": 722,
    "sed": 723,
    "able": 724,
    " toward": 725,
    "ons": 726,
    "ause": 727,
    " fo": 728,
    "ower": 729,
    " gu": 730,
    " wa": 731,
    " asked": 732,
    " every": 733,
    " something": 734,
    "gg": 735,
    " turn": 736,
    " rem": 737,
    "ance": 738,
    "dy": 739,
    " arm": 740,
    "ying": 741,
    " cr": 742,
    "ream": 743,
    "ning": 744,
    "ather": 745,
    "owed": 746,
    " much": 747,
    " bet": 748,
    "te": 749,
    "ose": 750,
    " two": 751,
    " sk": 752,
    " never": 753,
    "rang": 754,
    " against": 755,
    " first": 756,
    " cont": 757,
    " real": 758,
    " lit": 759,
    " going": 760,
    "fe": 761,
    " take": 762,
    " Te": 763,
    " che": 764,
    " made": 765,
    " wasn": 766,
    "ced": 767,
    " couldn": 768,
    "ps": 769,
    " pull": 770,
    " has": 771,
    " te": 772,
    " good": 773,
    "ions": 774,
    " let": 775,
    " comp": 776,
    " knew": 777,
    " sur": 778,
    "ora": 779,
    " att": 780,
    " ste": 781,
    "aking": 782,
    "ne": 783,
    "ond": 784,
    " where": 785,
    "hes": 786,
    "ious": 787,
    "ish": 788,
    " might": 789,
    " came": 790,
    "ty": 791,
    "ens": 792,
    "ical": 793,
    "arr": 794,
    " side": 795,
    " app": 796,
    "mo": 797,
    "aybe": 798,
    " hel": 799,
    " after": 800,
    "king": 801,
    " Mom": 802,
    "ful": 803,
    " day": 804,
    "ears": 805,
    "les": 806,
    " cap": 807,
    " beh": 808,
    " its": 809,
    "ord": 810,
    "hen": 811,
    " In": 812,
    " His": 813,
    "ber": 814,
    "It": 815,
    " tell": 816,
    " -": 817,
    " make": 818,
    "!\u201d": 819,
    " wall": 820,
    "hy": 821,
    "xt": 822,
    "zi": 823,
    " mages": 824,
    "oice": 825,
    "ied": 826,
    " per": 827,
    " happ": 828,
    " fe": 829,
    " little": 830,
    "ory": 831,
    " My": 832,
    " enough": 833,
    "ary": 834,
    " come": 835,
    " dec": 836,
    " car": 837,
    "ks": 838,
    " find": 839,
    " took": 840,
    "sp": 841,
    " bre": 842,
    "ped": 843,
    " behind": 844,
    " light": 845,
    " port": 846,
    "ail": 847,
    " though": 848,
    " cour": 849,
    "thari": 850,
    " sure": 851,
    " Ch": 852,
    " That": 853,
    " fee": 854,
    "We": 855,
    " Sor": 856,
    "air": 857,
    "What": 858,
    "ence": 859,
    " Uthari": 860,
    "ase": 861,
    "bo": 862,
    " own": 863,
    "get": 864,
    "ross": 865,
    " being": 866,
    " rep": 867,
    "ild": 868,
    " night": 869,
    " Sorath": 870,
    "ont": 871,
    " As": 872,
    " bot": 873,
    " belie": 874,
    " ad": 875,
    " sn": 876,
    "ible": 877,
    " power": 878,
    " old": 879,
    " world": 880,
    " room": 881,
    " mind": 882,
    " ship": 883,
    "bed": 884,
    " because": 885,
    " Tezi": 886,
    "ial": 887,
    "orm": 888,
    "os": 889,
    "rew": 890,
    " \u2013": 891,
    "ich": 892,
    " wr": 893,
    "ise": 894,
    "ress": 895,
    " des": 896,
    "iss": 897,
    " got": 898,
    " kill": 899,
    " hands": 900,
    " call": 901,
    "anted": 902,
    " dark": 903,
    "ned": 904,
    " keep": 905,
    " Y": 906,
    " few": 907,
    " portal": 908,
    " ret": 909,
    " life": 910,
    " left": 911,
    " hum": 912,
    " must": 913,
    "az": 914,
    " voice": 915,
    " poin": 916,
    "sh": 917,
    " while": 918,
    "rok": 919,
    " another": 920,
    "ating": 921,
    " drag": 922,
    "io": 923,
    " help": 924,
    " el": 925,
    " hadn": 926,
    " new": 927,
    " cou": 928,
    " hop": 929,
    "ng": 930,
    " war": 931,
    " hard": 932,
    " fin": 933,
    " anything": 934,
    "here": 935,
    " part": 936,
    "uck": 937,
    "adora": 938,
    " If": 939,
    " em": 940,
    " Jadora": 941,
    " last": 942,
    "av": 943,
    " front": 944,
    " home": 945,
    " rest": 946,
    " sec": 947,
    "ove": 948,
    "ince": 949,
    "ub": 950,
    "igh": 951,
    " ear": 952,
    " water": 953,
    " star": 954,
    " captain": 955,
    " z": 956,
    " This": 957,
    " wom": 958,
    " wanted": 959,
    "less": 960,
    " wal": 961,
    " end": 962,
    " ke": 963,
    "ds": 964,
    "ia": 965,
    " well": 966,
    " open": 967,
    "No": 968,
    " Mother": 969,
    "orn": 970,
    " jo": 971,
    " mer": 972,
    "ank": 973,
    "ness": 974,
    " black": 975,
    "aught": 976,
    " those": 977,
    " really": 978,
    "ater": 979,
    " tal": 980,
    " turned": 981,
    " wait": 982,
    "ign": 983,
    "That": 984,
    "ung": 985,
    "ually": 986,
    " pulled": 987,
    " What": 988,
    " mage": 989,
    " held": 990,
    " #": 991,
    " flo": 992,
    " place": 993,
    "ret": 994,
    "elt": 995,
    " mother": 996,
    "ple": 997,
    " love": 998,
    " act": 999,
    " put": 1000,
    "ready": 1001,
    " city": 1002,
    " art": 1003,
    " which": 1004,
    "ows": 1005,
    " There": 1006,
    " sound": 1007,
    " Her": 1008,
    "irl": 1009,
    " mom": 1010,
    " So": 1011,
    " creat": 1012,
    "so": 1013,
    " De": 1014,
    " each": 1015,
    " wind": 1016,
    " imp": 1017,
    " 1": 1018,
    " already": 1019,
    " Al": 1020,
    "owing": 1021,
    " wouldn": 1022,
    " inside": 1023,
    "ouse": 1024,
    " next": 1025,
    " does": 1026,
    " bu": 1027,
    "br": 1028,
    " cle": 1029,
    " No": 1030,
    " body": 1031,
    "cked": 1032,
    " rec": 1033,
    "ors": 1034,
    "ily": 1035,
    " trying": 1036,
    "ier": 1037,
    "we": 1038,
    " feet": 1039,
    " work": 1040,
    " without": 1041,
    " vis": 1042,
    " unt": 1043,
    "aw": 1044,
    " es": 1045,
    " most": 1046,
    " across": 1047,
    "ah": 1048,
    " hur": 1049,
    " feel": 1050,
    "ask": 1051,
    " found": 1052,
    " rel": 1053,
    " myself": 1054,
    "idarr": 1055,
    "ching": 1056,
    " dream": 1057,
    "per": 1058,
    " heart": 1059,
    "ised": 1060,
    " care": 1061,
    " told": 1062,
    " inc": 1063,
    " fire": 1064,
    " felt": 1065,
    " girl": 1066,
    "ways": 1067,
    "Th": 1068,
    " cur": 1069,
    " says": 1070,
    " fing": 1071,
    "dded": 1072,
    " arms": 1073,
    "Yes": 1074,
    " zidarr": 1075,
    " set": 1076,
    "ably": 1077,
    " why": 1078,
    " years": 1079,
    "ever": 1080,
    "ten": 1081,
    " dead": 1082,
    " read": 1083,
    " magic": 1084,
    " gi": 1085,
    " air": 1086,
    " ground": 1087,
    " believe": 1088,
    " fam": 1089,
    " small": 1090,
    " someone": 1091,
    " foll": 1092,
    " until": 1093,
    " str": 1094,
    " tried": 1095,
    "iv": 1096,
    " artif": 1097,
    " Then": 1098,
    "umb": 1099,
    "ep": 1100,
    " many": 1101,
    " hold": 1102,
    " ent": 1103,
    "app": 1104,
    " far": 1105,
    " saw": 1106,
    " better": 1107,
    " squ": 1108,
    " When": 1109,
    " run": 1110,
    " bar": 1111,
    " \"": 1112,
    " seen": 1113,
    "ured": 1114,
    " return": 1115,
    "aps": 1116,
    " near": 1117,
    "most": 1118,
    "aced": 1119,
    " Strang": 1120,
    " house": 1121,
    " artifact": 1122,
    " looking": 1123,
    " sil": 1124,
    "ool": 1125,
    " Man": 1126,
    "cen": 1127,
    " ever": 1128,
    "ized": 1129,
    "And": 1130,
    "ired": 1131,
    "iled": 1132,
    " stood": 1133,
    "oy": 1134,
    " nothing": 1135,
    "der": 1136,
    " Fer": 1137,
    " else": 1138,
    " contin": 1139,
    " mean": 1140,
    " yet": 1141,
    " met": 1142,
    " hal": 1143,
    " almost": 1144,
    " dist": 1145,
    "roki": 1146,
    " min": 1147,
    " whis": 1148,
    " sto": 1149,
    "ards": 1150,
    "ient": 1151,
    " ide": 1152,
    " same": 1153,
    " moment": 1154,
    "ren": 1155,
    " Ferroki": 1156,
    " sat": 1157,
    " course": 1158,
    " char": 1159,
    " hair": 1160,
    " mon": 1161,
    " ser": 1162,
    " ob": 1163,
    "ished": 1164,
    " close": 1165,
    "ib": 1166,
    "cept": 1167,
    " Or": 1168,
    " ass": 1169,
    " past": 1170,
    "rent": 1171,
    " quest": 1172,
    " things": 1173,
    " eye": 1174,
    "ict": 1175,
    " also": 1176,
    " least": 1177,
    " bat": 1178,
    " mercen": 1179,
    "pr": 1180,
    " mat": 1181,
    " stay": 1182,
    "gether": 1183,
    " along": 1184,
    " both": 1185,
    "used": 1186,
    " himself": 1187,
    "ult": 1188,
    "He": 1189,
    " weap": 1190,
    " grab": 1191,
    " dro": 1192,
    "oke": 1193,
    "outh": 1194,
    " nec": 1195,
    " thing": 1196,
    " dif": 1197,
    " since": 1198,
    " pain": 1199,
    "oun": 1200,
    "vie": 1201,
    " hu": 1202,
    " fight": 1203,
    " inst": 1204,
    " comm": 1205,
    "asko": 1206,
    " big": 1207,
    "ations": 1208,
    " Sasko": 1209,
    "tered": 1210,
    " went": 1211,
    " these": 1212,
    "ual": 1213,
    "sw": 1214,
    "od": 1215,
    "lock": 1216,
    "ully": 1217,
    " seemed": 1218,
    "ged": 1219,
    "ense": 1220,
    " prot": 1221,
    " underst": 1222,
    " spe": 1223,
    " conc": 1224,
    "ield": 1225,
    " V": 1226,
    " ter": 1227,
    "oot": 1228,
    "icked": 1229,
    " together": 1230,
    "ined": 1231,
    " dragon": 1232,
    "rest": 1233,
    " fore": 1234,
    "anced": 1235,
    " sky": 1236,
    " cast": 1237,
    " stre": 1238,
    " lot": 1239,
    " heard": 1240,
    " floor": 1241,
    " Not": 1242,
    " pers": 1243,
    "ushed": 1244,
    "ef": 1245,
    " bed": 1246,
    "ither": 1247,
    " deep": 1248,
    " men": 1249,
    "iet": 1250,
    "cap": 1251,
    " stand": 1252,
    " pass": 1253,
    " dri": 1254,
    " quick": 1255,
    " mar": 1256,
    " sword": 1257,
    " use": 1258,
    "pping": 1259,
    "irt": 1260,
    "ms": 1261,
    " kind": 1262,
    "ction": 1263,
    " boy": 1264,
    "ween": 1265,
    " answ": 1266,
    "\u2026": 1267,
    " ran": 1268,
    "ize": 1269,
    " three": 1270,
    "ash": 1271,
    " shook": 1272,
    " supp": 1273,
    " dire": 1274,
    " book": 1275,
    " Jack": 1276,
    " gone": 1277,
    " always": 1278,
    "amp": 1279,
    "lain": 1280,
    " once": 1281,
    " idea": 1282,
    " shoulder": 1283,
    "ins": 1284,
    " kept": 1285,
    " sit": 1286,
    "ife": 1287,
    "ix": 1288,
    " started": 1289,
    " half": 1290,
    " won": 1291,
    " creature": 1292,
    " chest": 1293,
    "ump": 1294,
    " poss": 1295,
    "vers": 1296,
    " sun": 1297,
    " give": 1298,
    "ches": 1299,
    " between": 1300,
    " attack": 1301,
    " An": 1302,
    " story": 1303,
    "ike": 1304,
    "olo": 1305,
    "But": 1306,
    " second": 1307,
    " breath": 1308,
    " very": 1309,
    " Am": 1310,
    " such": 1311,
    " int": 1312,
    " chang": 1313,
    " woman": 1314,
    "zz": 1315,
    " reac": 1316,
    " tou": 1317,
    " res": 1318,
    " dem": 1319,
    "idd": 1320,
    " fall": 1321,
    "ected": 1322,
    " All": 1323,
    "raw": 1324,
    " leave": 1325,
    " may": 1326,
    " king": 1327,
    " whisp": 1328,
    " Ke": 1329,
    " sle": 1330,
    " soon": 1331,
    "vent": 1332,
    "head": 1333,
    "haps": 1334,
    " beg": 1335,
    "aned": 1336,
    " nodded": 1337,
    "ead": 1338,
    " everything": 1339,
    "atch": 1340,
    " smiled": 1341,
    " stud": 1342,
    " done": 1343,
    " able": 1344,
    " words": 1345,
    " leg": 1346,
    "..": 1347,
    " called": 1348,
    " gave": 1349,
    " sold": 1350,
    " bit": 1351,
    "pl": 1352,
    "ger": 1353,
    "day": 1354,
    " land": 1355,
    " def": 1356,
    "They": 1357,
    "ov": 1358,
    " On": 1359,
    " remem": 1360,
    " frie": 1361,
    "any": 1362,
    " Maybe": 1363,
    " fill": 1364,
    " Cl": 1365,
    " escap": 1366,
    " Ton": 1367,
    "ently": 1368,
    " tre": 1369,
    " minut": 1370,
    "akes": 1371,
    " After": 1372,
    " mouth": 1373,
    " high": 1374,
    " doing": 1375,
    " thr": 1376,
    " lau": 1377,
    " maybe": 1378,
    " dou": 1379,
    " oc": 1380,
    "ho": 1381,
    "bably": 1382,
    " lead": 1383,
    "ition": 1384,
    " understand": 1385,
    " Keio": 1386,
    " friend": 1387,
    " How": 1388,
    " lar": 1389,
    " person": 1390,
    " ed": 1391,
    "aring": 1392,
    " \u2018": 1393,
    "\u2019\u2019": 1394,
    "up": 1395,
    " inter": 1396,
    "ina": 1397,
    "aries": 1398,
    "oc": 1399,
    "ides": 1400,
    " surpr": 1401,
    "og": 1402,
    " fle": 1403,
    "reen": 1404,
    "ased": 1405,
    " sever": 1406,
    " stared": 1407,
    "ek": 1408,
    " whispered": 1409,
    "aster": 1410,
    " (": 1411,
    " With": 1412,
    "ser": 1413,
    " several": 1414,
    "olog": 1415,
    "ject": 1416,
    " opened": 1417,
    " blood": 1418,
    " gaz": 1419,
    " move": 1420,
    " human": 1421,
    " bus": 1422,
    " neck": 1423,
    "ertain": 1424,
    " coll": 1425,
    " caught": 1426,
    "ets": 1427,
    " hor": 1428,
    " outside": 1429,
    " At": 1430,
    " Stranger": 1431,
    " `": 1432,
    " young": 1433,
    " walked": 1434,
    "eared": 1435,
    "gged": 1436,
    " trust": 1437,
    " stopped": 1438,
    " trans": 1439,
    "ovan": 1440,
    " herself": 1441,
    " sim": 1442,
    "eg": 1443,
    "anc": 1444,
    " imag": 1445,
    "ists": 1446,
    " used": 1447,
    "ush": 1448,
    "orry": 1449,
    " diffe": 1450,
    " great": 1451,
    " others": 1452,
    " disapp": 1453,
    " lifted": 1454,
    " magical": 1455,
    " Tonovan": 1456,
    "ention": 1457,
    " red": 1458,
    " glanced": 1459,
    " inte": 1460,
    " acc": 1461,
    "Oh": 1462,
    "lex": 1463,
    " point": 1464,
    "ening": 1465,
    "body": 1466,
    " top": 1467,
    " play": 1468,
    " Even": 1469,
    " skin": 1470,
    " blue": 1471,
    " name": 1472,
    "So": 1473,
    " continu": 1474,
    " Z": 1475,
    " One": 1476,
    "ner": 1477,
    " doub": 1478,
    " bab": 1479,
    " del": 1480,
    " making": 1481,
    " enem": 1482,
    " resp": 1483,
    "end": 1484,
    "ison": 1485,
    "but": 1486,
    " true": 1487,
    "aid": 1488,
    " low": 1489,
    " onto": 1490,
    "kay": 1491,
    " castle": 1492,
    "yk": 1493,
    "ene": 1494,
    " ph": 1495,
    " above": 1496,
    " cent": 1497,
    " For": 1498,
    " bad": 1499,
    "room": 1500,
    " try": 1501,
    " eas": 1502,
    " press": 1503,
    " stru": 1504,
    " movie": 1505,
    " mercenaries": 1506,
    " ``": 1507,
    " grabbed": 1508,
    " question": 1509,
    " explain": 1510,
    " battle": 1511,
    " mem": 1512,
    " tight": 1513,
    "uff": 1514,
    " pur": 1515,
    " quiet": 1516,
    " best": 1517,
    " moved": 1518,
    "ph": 1519,
    " smile": 1520,
    " pointed": 1521,
    " lea": 1522,
    "ately": 1523,
    " ind": 1524,
    " aw": 1525,
    " fig": 1526,
    " spec": 1527,
    "where": 1528,
    " sub": 1529,
    " alone": 1530,
    " white": 1531,
    "ering": 1532,
    " bare": 1533,
    " miss": 1534,
    " ra": 1535,
    "ashed": 1536,
    " deck": 1537,
    "ori": 1538,
    "hip": 1539,
    " anyone": 1540,
    " rock": 1541,
    " cut": 1542,
    " family": 1543,
    "Do": 1544,
    " either": 1545,
    " inf": 1546,
    " ask": 1547,
    " table": 1548,
    " gen": 1549,
    "ific": 1550,
    "arl": 1551,
    "wen": 1552,
    " adm": 1553,
    " live": 1554,
    " gri": 1555,
    "uth": 1556,
    " start": 1557,
    "ery": 1558,
    " stepped": 1559,
    "ters": 1560,
    " lost": 1561,
    " ho": 1562,
    " lay": 1563,
    " closed": 1564,
    " hear": 1565,
    " window": 1566,
    " fell": 1567,
    " father": 1568,
    " meant": 1569,
    " walls": 1570,
    "aut": 1571,
    " ext": 1572,
    "iec": 1573,
    " perf": 1574,
    "eah": 1575,
    " disc": 1576,
    "unt": 1577,
    "inder": 1578,
    " --": 1579,
    "This": 1580,
    " exper": 1581,
    " death": 1582,
    " thoughts": 1583,
    " plan": 1584,
    "aken": 1585,
    "ipped": 1586,
    " lear": 1587,
    "ident": 1588,
    " ready": 1589,
    " Be": 1590,
    "arent": 1591,
    " ins": 1592,
    " God": 1593,
    "apped": 1594,
    "ming": 1595,
    " lips": 1596,
    " kno": 1597,
    " reas": 1598,
    " Heart": 1599,
    " later": 1600,
    " gold": 1601,
    " wrong": 1602,
    " probably": 1603,
    "yp": 1604,
    " strang": 1605,
    " hit": 1606,
    "umped": 1607,
    " finally": 1608,
    "iness": 1609,
    " Stone": 1610,
    " hour": 1611,
    "als": 1612,
    " ref": 1613,
    " ple": 1614,
    " minutes": 1615,
    " child": 1616,
    " sense": 1617,
    " Tal": 1618,
    " coming": 1619,
    " To": 1620,
    " quickly": 1621,
    " pick": 1622,
    " free": 1623,
    " times": 1624,
    " clear": 1625,
    " large": 1626,
    "oud": 1627,
    "int": 1628,
    " Do": 1629,
    " cre": 1630,
    " dest": 1631,
    "vel": 1632,
    "lexis": 1633,
    " doesn": 1634,
    " different": 1635,
    " leaned": 1636,
    " fingers": 1637,
    " scream": 1638,
    " conf": 1639,
    "osed": 1640,
    "els": 1641,
    " med": 1642,
    " wo": 1643,
    "ular": 1644,
    " mor": 1645,
    " couple": 1646,
    " build": 1647,
    " killed": 1648,
    "unn": 1649,
    "ots": 1650,
    " Now": 1651,
    " har": 1652,
    " cor": 1653,
    " reg": 1654,
    "iny": 1655,
    " det": 1656,
    " team": 1657,
    "rought": 1658,
    "ially": 1659,
    " chance": 1660,
    " Owen": 1661,
    " pat": 1662,
    " reached": 1663,
    " pock": 1664,
    " days": 1665,
    " fre": 1666,
    "land": 1667,
    "ained": 1668,
    " full": 1669,
    "the": 1670,
    " remember": 1671,
    " Le": 1672,
    " escape": 1673,
    " needed": 1674,
    "If": 1675,
    " stop": 1676,
    "How": 1677,
    " brought": 1678,
    "ax": 1679,
    " cons": 1680,
    " hurt": 1681,
    " Just": 1682,
    " thinking": 1683,
    " followed": 1684,
    " inv": 1685,
    " corn": 1686,
    " tor": 1687,
    " happened": 1688,
    "issed": 1689,
    " protect": 1690,
    " forward": 1691,
    " weapons": 1692,
    "top": 1693,
    " Jos": 1694,
    " road": 1695,
    " certain": 1696,
    "iver": 1697,
    " answer": 1698,
    "iers": 1699,
    " sent": 1700,
    " fact": 1701,
    "adis": 1702,
    " Deity": 1703,
    " roll": 1704,
    "She": 1705,
    " hope": 1706,
    "mb": 1707,
    " strong": 1708,
    "iding": 1709,
    " mur": 1710,
    " glass": 1711,
    "There": 1712,
    " women": 1713,
    "ically": 1714,
    " 2": 1715,
    "fully": 1716,
    " tri": 1717,
    " bring": 1718,
    " burn": 1719,
    "by": 1720,
    " Some": 1721,
    " Dre": 1722,
    " mageship": 1723,
    " Tinder": 1724,
    " fly": 1725,
    "ures": 1726,
    " finger": 1727,
    " mine": 1728,
    " Da": 1729,
    "Why": 1730,
    "uring": 1731,
    " talk": 1732,
    "aged": 1733,
    ".\"": 1734,
    "isted": 1735,
    " taking": 1736,
    " guards": 1737,
    " matter": 1738,
    "iff": 1739,
    " col": 1740,
    "ided": 1741,
    "du": 1742,
    " Fet": 1743,
    " fil": 1744,
    " Talori": 1745,
    " Josie": 1746,
    "ian": 1747,
    "Not": 1748,
    " rather": 1749,
    " thro": 1750,
    " ang": 1751,
    "man": 1752,
    " piec": 1753,
    " green": 1754,
    " filled": 1755,
    " clim": 1756,
    "ents": 1757,
    " defe": 1758,
    " reason": 1759,
    "idar": 1760,
    " Amadis": 1761,
    " dep": 1762,
    " cal": 1763,
    " interest": 1764,
    " waiting": 1765,
    " mut": 1766,
    " less": 1767,
    "dom": 1768,
    " class": 1769,
    " actually": 1770,
    "zzyk": 1771,
    " Dar": 1772,
    " sign": 1773,
    " ele": 1774,
    "ities": 1775,
    "ormal": 1776,
    "ees": 1777,
    " short": 1778,
    " slow": 1779,
    " sleep": 1780,
    " watched": 1781,
    "Don": 1782,
    "ilt": 1783,
    "its": 1784,
    " stom": 1785,
    " sho": 1786,
    "bs": 1787,
    " sig": 1788,
    " sorry": 1789,
    "Are": 1790,
    "de": 1791,
    " realized": 1792,
    " Drezzyk": 1793,
    " Yidar": 1794,
    "ze": 1795,
    " explo": 1796,
    "vern": 1797,
    " ris": 1798,
    "ited": 1799,
    " getting": 1800,
    " raised": 1801,
    " longer": 1802,
    "not": 1803,
    " direct": 1804,
    "egold": 1805,
    " Darv": 1806,
    " feeling": 1807,
    " fear": 1808,
    "ars": 1809,
    " wood": 1810,
    " Why": 1811,
    " heal": 1812,
    " guess": 1813,
    " legs": 1814,
    " kid": 1815,
    "more": 1816,
    "ience": 1817,
    " soldiers": 1818,
    "ecause": 1819,
    " perhaps": 1820,
    "aper": 1821,
    " humans": 1822,
    " whole": 1823,
    "nding": 1824,
    " vie": 1825,
    " view": 1826,
    " dropped": 1827,
    " rub": 1828,
    "actly": 1829,
    "ird": 1830,
    " form": 1831,
    " wra": 1832,
    " everyone": 1833,
    "aked": 1834,
    " morning": 1835,
    " beach": 1836,
    "ates": 1837,
    " quite": 1838,
    " wonder": 1839,
    "ames": 1840,
    "read": 1841,
    "ging": 1842,
    " dang": 1843,
    " soft": 1844,
    " grow": 1845,
    " sy": 1846,
    " worried": 1847,
    "bing": 1848,
    " Roy": 1849,
    "umbled": 1850,
    " pay": 1851,
    "irc": 1852,
    "iling": 1853,
    " ca": 1854,
    "ys": 1855,
    " watch": 1856,
    " leaving": 1857,
    " beaut": 1858,
    " safe": 1859,
    " stra": 1860,
    " prom": 1861,
    " draw": 1862,
    "umm": 1863,
    " Ar": 1864,
    " hall": 1865,
    " crew": 1866,
    " Manegold": 1867,
    " magelock": 1868,
    "ought": 1869,
    " rose": 1870,
    " bag": 1871,
    " cat": 1872,
    " worry": 1873,
    " Pro": 1874,
    " barely": 1875,
    "roken": 1876,
    " fur": 1877,
    " speak": 1878,
    " trou": 1879,
    " adv": 1880,
    " yell": 1881,
    "tern": 1882,
    " taken": 1883,
    " bro": 1884,
    " scr": 1885,
    " strange": 1886,
    "ug": 1887,
    " possible": 1888,
    " perfect": 1889,
    " looks": 1890,
    "selves": 1891,
    " continued": 1892,
    "rol": 1893,
    "'s": 1894,
    "Is": 1895,
    " meet": 1896,
    " threat": 1897,
    " weren": 1898,
    "ae": 1899,
    " ble": 1900,
    " doubt": 1901,
    "uk": 1902,
    "arlie": 1903,
    "vil": 1904,
    " returned": 1905,
    " swe": 1906,
    "sing": 1907,
    " ago": 1908,
    " hoped": 1909,
    " pres": 1910,
    " foc": 1911,
    " King": 1912,
    " sounded": 1913,
    " instead": 1914,
    " kit": 1915,
    "can": 1916,
    " sighed": 1917,
    " shield": 1918,
    " wife": 1919,
    " El": 1920,
    " occ": 1921,
    "oth": 1922,
    " eng": 1923,
    " sugg": 1924,
    " list": 1925,
    " normal": 1926,
    "ndred": 1927,
    "ility": 1928,
    " eff": 1929,
    "night": 1930,
    " smoke": 1931,
    " grou": 1932,
    "ien": 1933,
    "aces": 1934,
    "bl": 1935,
    "ths": 1936,
    " anyway": 1937,
    " bott": 1938,
    "ines": 1939,
    "\u2014\u201d": 1940,
    " flew": 1941,
    "iced": 1942,
    " courty": 1943,
    "lla": 1944,
    " chair": 1945,
    " holding": 1946,
    " edge": 1947,
    "ract": 1948,
    " shot": 1949,
    " picked": 1950,
    " trave": 1951,
    " gaze": 1952,
    " broken": 1953,
    " shut": 1954,
    " jour": 1955,
    " Zar": 1956,
    " crack": 1957,
    " Ry": 1958,
    "acing": 1959,
    " win": 1960,
    "Yeah": 1961,
    "ls": 1962,
    " happen": 1963,
    " sort": 1964,
    " Len": 1965,
    " yes": 1966,
    " arch": 1967,
    " town": 1968,
    "ime": 1969,
    " company": 1970,
    "iles": 1971,
    " throat": 1972,
    " isn": 1973,
    " cab": 1974,
    " dragons": 1975,
    "iting": 1976,
    " break": 1977,
    " guard": 1978,
    " mark": 1979,
    " closer": 1980,
    " comple": 1981,
    " Cap": 1982,
    "ara": 1983,
    " coun": 1984,
    " courtyard": 1985,
    " ships": 1986,
    " vol": 1987,
    "iona": 1988,
    " Rina": 1989,
    " street": 1990,
    " metal": 1991,
    "Well": 1992,
    " pri": 1993,
    "ants": 1994,
    " More": 1995,
    " touch": 1996,
    "Let": 1997,
    " four": 1998,
    " hot": 1999,
    " arri": 2000,
    " okay": 2001,
    "how": 2002,
    "iously": 2003,
    " bur": 2004,
    " waved": 2005,
    " cross": 2006,
    " Mel": 2007,
    "inda": 2008,
    " Zaruk": 2009,
    "fess": 2010,
    " shru": 2011,
    " corner": 2012,
    " shad": 2013,
    " given": 2014,
    " today": 2015,
    "ages": 2016,
    " slid": 2017,
    " walk": 2018,
    "raid": 2019,
    " mus": 2020,
    "cess": 2021,
    " nearly": 2022,
    " tree": 2023,
    " Melinda": 2024,
    " repl": 2025,
    " vision": 2026,
    " sch": 2027,
    "ges": 2028,
    "itted": 2029,
    " become": 2030,
    " main": 2031,
    " standing": 2032,
    "ones": 2033,
    " shirt": 2034,
    " step": 2035,
    "imes": 2036,
    " realize": 2037,
    " five": 2038,
    " bright": 2039,
    "ude": 2040,
    "pted": 2041,
    " control": 2042,
    " area": 2043,
    "ortun": 2044,
    "adia": 2045,
    "eth": 2046,
    " Every": 2047
}